#version: 0.2
k h
n a</w>
h a
m a
y a
s a
n i
w a
h o
u ŋ
m a</w>
h a</w>
c i
e k
ŋ a</w>
g a
n a
c i</w>
m e
u k
b e</w>
t a
g a</w>
l a
h e
k a</w>
b a
n d
c a
ŋ kh
n na</w>
m i
o k
c a</w>
t u
k a
h i
p a
s u
n u
y a</w>
ni ŋ
l e
ho ŋ</w>
kh a
e ʔ
s i
l i
nu ŋ</w>
b a</w>
ʔ l
l o
ha ŋ
g o</w>
sa ŋ</w>
ni ŋ</w>
ha k
w a</w>
l uŋ
ek o</w>
ŋ na</w>
ŋ a
kh e
kh ya
y o
s a</w>
ma m
n na
m d
ha ŋ</w>
h u
c u
c hi
p p
me ʔ
luŋ kh
luŋkh wa
kh u
t o
ŋkh a
ŋ ga
nd a
n e
m ma
kh i
c o
ŋ be</w>
m o
ha k</w>
b u</w>
ya ŋ</w>
p i
p ho
ma ŋ
l ek
h ek
b e
uk s
l u
ga na</w>
c ok
b u
ʔl a</w>
kh a</w>
m ma</w>
luŋkhwa k</w>
l e</w>
he ʔ
t uk
pp a</w>
ni ŋa</w>
lo ʔ
uks u</w>
s o
s e
nd a</w>
ya ŋ
r a
n j
kha ʔla</w>
g hak</w>
ya ma
n ha</w>
n ha
ka niŋ</w>
hek o
ya p
ya k</w>
uk su
n ci
n ca
i k
h e</w>
c he
c eʔ
ŋ g
p yak</w>
n haŋ
lek sa
le ŋ
e n
a ma
ŋkh a</w>
uŋ ci
u cu
tu m
t ha
p u
kh eʔ
e ŋ
d a
c ho
b haŋ</w>
a k
ʔl o</w>
ʔ niŋ</w>
s wa
s e</w>
pho p
p pa
p e</w>
meʔ na</w>
m i</w>
m be</w>
khi ŋ</w>
kh o
k i
i ha</w>
a na
ŋ ha</w>
ya k
t wa
t o</w>
n niŋ
n e</w>
ceʔ ya</w>
b hoŋ</w>
a m
ŋ wa
u la
phop ci
p hu
n ya
n i</w>
n he</w>
maŋ c
m e</w>
kh ok
j a
i ʔ
i sa
i mi
ho ŋ
chi md
c h
a niŋ
a na</w>
yap mi</w>
ya na</w>
y u
y o</w>
w e
su m
r o
p he
p ha
niŋ go</w>
nd u
na ʔ
mi yaŋ</w>
mam u</w>
ma ga</w>
loʔ a</w>
kh ya</w>
k e
i ŋ
i khiŋ</w>
g u
g h
d e
c hu
c ha</w>
c ha
b i</w>
ama nuŋ</w>
ŋkha ʔ
ŋa n</w>
yo ga
ya ci</w>
y uŋ
t e
r u
pa ŋ</w>
p t
o m</w>
nha ŋa</w>
nda ŋ</w>
mi na</w>
meʔ ne
ma ŋ</w>
ma s
m u
m me
li k</w>
i ha
he t
hak u</w>
eʔ na</w>
ci ŋa</w>
ca nca
ba k</w>
ʈ e
ya ma</w>
wa ci</w>
sa na</w>
sa ma
sa khya
r i</w>
r i
p o
p e
nj o
n uŋ
me ŋna</w>
me n</w>
ma ci
m ha</w>
m bu
la k
heʔ ne</w>
heko na</w>
h uŋ
d i
cu wa</w>
co ga
ci ha</w>
ba ŋ
b i
uksu ci</w>
tuk nuŋ</w>
ta ŋ
t uŋ
t he
su na</w>
si ŋ
r o</w>
pho k</w>
pa ŋbe</w>
p ta
p ma</w>
ok ma</w>
niŋ a
nhaŋ to</w>
n leŋ
n l
n haŋ</w>
mi ci</w>
m o</w>
m ci
luŋkhwa k
li mbu
le ppa</w>
khu md
khu ba</w>
kha m</w>
ha ʔniŋ</w>
ha ci</w>
g ha</w>
eŋ ga</w>
ek o
ca ma</w>
ca leppa</w>
c e
ak ka</w>
ɖ a</w>
ŋkhaʔ niŋgo</w>
ŋkh o
ŋ ci
yap mici</w>
yama na</w>
uŋ ŋa</w>
uŋ ci</w>
u ŋ</w>
tu gana</w>
to na</w>
t haŋ
t a</w>
sa ŋna</w>
s uksu</w>
ro k</w>
r ok
pp e</w>
phopci ba
ok saŋ</w>
nna be</w>
niŋa go</w>
ni nha</w>
n chimd
mi k</w>
me nna</w>
maŋc wa
mam uŋ
mam u
mam li
ma c
m na</w>
m ba
m b
loʔ ana</w>
la md
l uk
khe i
kh i</w>
k o
ho nna</w>
hi ppa
h i</w>
ga i</w>
cok cok
che n</w>
ba ŋ</w>
ba bu</w>
aniŋ ga</w>
ana ŋa</w>
a la
ʈe bu
ʈebu l
ɖ huŋ
ŋkh i
ŋ niŋago</w>
ŋ c
yak si
yaksi gu
wa nd
wand ik
uŋ da
ucu n</w>
u tha
u sa
usa mbe</w>
tu na</w>
tu hoŋ</w>
to ŋ
to khaʔla</w>
ta s
t i</w>
se m
sakhya ma</w>
sa l
ri k</w>
r ik
pi ʔ
phopci ba</w>
p uŋda
p hi
nya su
nu n
nleŋ men</w>
ni su
ni n</w>
na bu</w>
mo na</w>
meʔne nna</w>
maŋc wa</w>
mamuŋ a</w>
ma sa
ma na</w>
ma k
ma hoŋ</w>
ma ha</w>
m ŋa</w>
m bu</w>
li ŋkha
le pt
le n</w>
lamd haŋ
la p
la ba
l i</w>
ki si
khya na</w>
khumd u
khu r
kheʔ ma</w>
khe p
ka k
j e
i p
i na</w>
i ja
he n
hak saŋ</w>
ha ʔlo</w>
gh ya
ga n</w>
en ch
ench o</w>
e ba</w>
de wa
d a</w>
cokcok i
ci ga</w>
chi m
canca n</w>
bu ci</w>
ba buci</w>
am uk
ʔ yo
ʔ la
ʌ r
ʈebul ga</w>
ɖhuŋ ga</w>
ŋkha ʔniŋ</w>
ŋkha ʔla</w>
ŋkh iŋ
ŋkh e
ŋga ya
ŋg e
ŋa nna</w>
ŋ ca
ŋ bhaŋ</w>
yuŋ a
yoga nniŋ
yoganniŋ bi</w>
yaŋ hoŋ</w>
yaksigu m</w>
ya ŋna</w>
ya ha</w>
y yoganniŋbi</w>
y u</w>
w haŋ
uŋci ŋha</w>
uk sa
u sa</w>
u ppa</w>
u n
u ma</w>
u hi
tu ŋ</w>
the mma</w>
ta ŋ</w>
ta ma</w>
t i
t hi
t en
sum baŋ</w>
su ci
so ŋniŋago</w>
si ŋ</w>
se n
s uksu
s i</w>
s eʔ
r a</w>
pu ga</w>
piʔ ne
phe ri</w>
p ʌr
o ŋ
o ga
nya suksu
